4996C3F58F45A5F36C7F6FCE3723B02DA13CC2BB6C5B80BF3FCB85C740BDB387
79CCB651680AB2320BB6019C0B0ECB0438B0DE204850571AB9125BC637A4C3C8
5E7F222E2CF0E45EFE87512D5BE1307EB72C754BB8B767474030398B69BF78B0
CC8A20693D9A547772243CB6EF7EEF6515AC3BCD03BFFD3693C6B37D93C98FE3
896E15AFAD94527FBB929D7D585E2B86A705854045B167D738CA6EB806325236
50875DA5FDF150095E548A047C2816596C9C6EE4810D1743792963913E026928
4A7615D6B99CAEED5ED55382204656432A34FC442246A0C9924A6D5FD5D4AC7B
B8231908038CF0E67F921C953E4F39F410DE8753DAB31FB52DBBAC0134777715
A1423161C375EB909DCC0EAC7667956AFABFA8E7ACCFA47C44BE8655EF6B60A7
3E1F097A922216F09315011E51879F8B2D9E335ECCC6696513E536BF7CEE1994
145F1D24D2E9317917D56ACC827C39526B724FBE1CBA946EDDB5480BE4BBB9B6
1A25289EDD3712A317AF55D7E4DBE9CCF74A3C215D96C988A916605474339920
F7337ADA5E10520A9472C3BCFD01CFBC90B0D24D9A3F55AC886D0C1ABF9A0B32
EE0BDEFEBEE5FE3B47F05C6EB63A6CD663D4B2271C347207F693492DBC1489F9
B06048CFECD826EB7D26419E853331A52C3828A785440BD37C699F447FB1011A
24E3B303424D00F8002DABF68B952C15F4FF2E405D64CE5DC934FB73A5BC5477
640C8EA332DE1A9952547D72EB6767D384CE109DA316A6E36F1F027D7517CB18
BEFB2CF0C15A2725277FE3A47F263934B482BC2CE3879F6D2F576EC39815207C
10044F12FB3EF8277D2C959D7EE7C53E46F58F5CB2A8AB8F13944A805BD8E2B0
49FE55082A6B8D90989320F455EBBEDEE9D3BDF5B3D6C68839C9CC34A7533FF4
4E86E68ACBAA68BD3ABC37B84EAA779E1A874AD8DACE463EFA31E2750B8F91CB
4EE0A0F9CFEC10BC6075691EAD8A07087F30C0E004711933DB48AFDEEF807E0A
A2751D0CB588A02E2084740617E4AA874F3DAC5B45CC746778D79A3EF265D9EC
A000941236F0A6B2B0E394264CB41C7818DE4083E09ABC3A56CB14920413C072
50E4E0146704D5BE3DD32065E7F7074513E20BD3AA06FA19F0B203C913DF2534
A7365BDE8FEEE27588495AFEA893B216864F2CE17BFA10A0BABEC288DB2087D1
8D56F0F3C5AD257DCC844872FD17EBF94CDE0CE69E7896C67E784C7AADAE9908
25DBAA149315F48D85040C3FF38F3CC310051BBA3DF1C51639ED0C6002877F6F
9A72E8F8DDF4F5910647A5066D0A420E7C41986EB6E964FCAC103E841F0F1E91
E4EFB4E3848E3B1963796C8234E6BEB56E4D7FD1EB57665C0D4D5C5DE6714378
2E3DCB7524392F52658BC6D2E261E1DA955DD02C877A14AFD910832F53397C96
08F37330DB941E6586FB71F42F97C0F251745C65DDB4831406DDF3795632DC25
